1111111111
1111111111
1111111111
1111111111
1111111111
1111111111
1111111111
1111111111
1111111111
1111111111
1111111111
1111111111
1111111111
1111111111
1111111111
1111111111
1111111111
1111111111
1111111111
1111111111
1111111111
1111111111
1111111111
1111111111
1111111111
1111111111
1111111111
1111111111
1111111111
1111111111
1111111111
1111111111
1111111111
1111111111
1111111111
1111111111
1111111111
1111111111
1111111111
1111111111
1111111111
1111111111
1111111111
1111111111
1111111111
1111111111
1111111111
1111111111
1111111111
1111111111
1111111111
1111111111
1111111111
1111111111
1111111111
1111111111
1111111111
1111111111
1111111111
1111111111
1111111111
1111111111
1111111111
1111111111
1111111111
1111111111
1111111111
1111111111
1111111111
1111111111
1111111111
1111111111
1111111111
1111111111
1111111111
1111111111
1111111111
1111111111
1111111111
1111111111
1111111111
1111111111
1111111111
1111111111
1111111111
1111111111
1111111111
1111111111
1111111111
1111111111
1111111111
1111111111
1111111111
1111111111
1111111111
1111111111
1111111111
1111111111
1111111111
1111111111
1111111111
1111111111
1111111111
1111111111
1111111111
1111111111
1111111111
1111111111
1111111111
1111111111
1111111111
1111111111
1111111111
1111111111
1111111111
1111111111
1111111111
1111111111
1111111111
1111111111
1111111111
1111111111
1111111111
1111111111
1111111111
1111111111
1111111111
1111111111
1111111111
1111111111
1111111111
1111111111
1111111111
1111111111
1111111111
1111111111
1111111111
1111111111
1111111111
1111111111
1111111111
1111111111
1111111111
1111111111
1111111111
1111111111
1111111111
1111111111
1111111111
1111111111
1111111111
1111111111
1111111111
1111111111
1111111111
1111111111
1111111111
1111111111
1111111111
1111111111
1111111111
1111111111
1111111111
1111111111
1111111111
1111111111
1111111111
1111111111
1111111111
1111111111
1111111111
1111111111
1111111111
1111111111
1111111111
1111111111
1111111111
1111111111
1111111111
1111111111
1111111111
1111111111
1111111111
1111111111
1111111111
1111111111
1111111111
1111111111
1111111111
1111111111
1111111111
1111111111
1111111111
1111111111
1111111111
1111111111
1111111111
1111111111
1111111111
1111111111
1111111111
1111111111
1111111111
1111111111
1111111111
1111111111
1111111111
1111111111
1111111111
1111111111
1111111111
1111111111
1111111111
1111111111
1111111111
1111111111
1111111111
1111111111
1111111111
1111111111
1111111111
1111111111
1111111111
1111111111
1111111111
1111111111
1111111111
1111111111
1111111111
1111111111
1111111111
1111111111
1111111111
1111111111
1111111111
1111111111
1111111111
1111111111
1111111111
1111111111
1111111111
1111111111
1111111111
1111111111
1111111111
1111111111
1111111111
1111111111
1111111111
1111111111
1111111111
1111111111
1111111111
1111111111
1111111111
1111111111
1111111111
1111111111
1111111111
1111111111
1111111111
1111111111
1111111111
1111111111
1111111111
1111111111
1111111111
1111111111
1111111111
1111111111
1111111111
1111111111
1111111111
1111111111
1111111111
1111111111
1111111111
1111111111
1111111111
1111111111
1111111111
1111111111
1111111111
1111111111
1111111111
1111111111
1111111111
1111111111
1111111111
1111111111
1111111111
1111111111
1111111111
1111111111
1111111111
1111111111
1111111111
1111111111
1111111111
1111111111
1111111111
1111111111
1111111111
1111111111
1111111111
1111111111
1111111111
1111111111
1111111111
1111111111
1111111111
1111111111
1111111111
1111111111
1111111111
1111111111
1111111111
1111111111
1111111111
1111111111
1111111111
1111111111
1111111111
1111111111
1111111111
1111111111
1111111111
1111111111
1111111111
1111111111
1111111111
1111111111
1111111111
1111111111
1111111111
1111111111
1111111111
1111111111
1111111111
1111111111
1111111111
1111111111
1111111111
1111111111
1111111111
1111111111
1111111111
1111111111
1111111111
1111111111
1111111111
1111111111
1111111111
1111111111
1111111111
1111111111
1111111111
1111111111
1111111111
1111111111
1111111111
1111111111
1111111111
1111111111
1111111111
1111111111
1111111111
1111111111
1111111111
1111111111
1111111111
1111111111
1111111111
1111111111
1111111111
1111111111
1111111111
1111111111
1111111111
1111111111
1111111111
1111111111
1111111111
1111111111
2222222222
2222222222
2222222222
2222222222
2222222222
2222222222
2222222222
2222222222
2222222222
2222222222
2222222222
2222222222
2222222222
2222222222
2222222222
2222222222
2222222222
2222222222
2222222222
2222222222
2222222222
2222222222
2222222222
2222222222
2222222222
2222222222
2222222222
2222222222
2222222222
2222222222
2222222222
2222222222
2222222222
2222222222
2222222222
2222222222
2222222222
2222222222
2222222222
2222222222
2222222222
2222222222
2222222222
2222222222
2222222222
2222222222
2222222222
2222222222
2222222222
2222222222
2222222222
2222222222
2222222222
2222222222
2222222222
2222222222
2222222222
2222222222
2222222222
2222222222
2222222222
2222222222
2222222222
2222222222
2222222222
2222222222
2222222222
2222222222
2222222222
2222222222
2222222222
2222222222
2222222222
2222222222
2222222222
2222222222
2222222222
2222222222
2222222222
2222222222
2222222222
2222222222
2222222222
2222222222
2222222222
2222222222
2222222222
2222222222
2222222222
2222222222
2222222222
2222222222
2222222222
2222222222
2222222222
2222222222
2222222222
2222222222
2222222222
2222222222
2222222222
2222222222
2222222222
2222222222
2222222222
2222222222
2222222222
2222222222
2222222222
2222222222
2222222222
2222222222
2222222222
2222222222
2222222222
2222222222
2222222222
2222222222
2222222222
2222222222
2222222222
2222222222
2222222222
2222222222
2222222222
2222222222
2222222222
2222222222
2222222222
2222222222
2222222222
2222222222
2222222222
2222222222
2222222222
2222222222
2222222222
2222222222
2222222222
2222222222
2222222222
2222222222
2222222222
2222222222
2222222222
2222222222
2222222222
2222222222
2222222222
2222222222
2222222222
2222222222
2222222222
2222222222
2222222222
2222222222
2222222222
2222222222
2222222222
2222222222
2222222222
2222222222
2222222222
2222222222
2222222222
2222222222
2222222222
2222222222
2222222222
2222222222
2222222222
2222222222
2222222222
2222222222
2222222222
2222222222
2222222222
2222222222
2222222222
2222222222
2222222222
2222222222
2222222222
2222222222
2222222222
2222222222
2222222222
2222222222
2222222222
2222222222
2222222222
2222222222
2222222222
2222222222
2222222222
2222222222
2222222222
2222222222
2222222222
2222222222
2222222222
2222222222
2222222222
2222222222
2222222222
2222222222
2222222222
2222222222
2222222222
2222222222
2222222222
2222222222
2222222222
2222222222
2222222222
2222222222
2222222222
2222222222
2222222222
2222222222
2222222222
2222222222
2222222222
2222222222
2222222222
2222222222
2222222222
2222222222
2222222222
2222222222
2222222222
2222222222
2222222222
2222222222
2222222222
2222222222
2222222222
2222222222
2222222222
2222222222
2222222222
2222222222
2222222222
2222222222
2222222222
2222222222
2222222222
2222222222
2222222222
2222222222
2222222222
2222222222
2222222222
2222222222
2222222222
2222222222
2222222222
2222222222
2222222222
2222222222
2222222222
2222222222
2222222222
2222222222
2222222222
2222222222
2222222222
2222222222
2222222222
2222222222
2222222222
2222222222
2222222222
2222222222
2222222222
2222222222
2222222222
2222222222
2222222222
2222222222
2222222222
2222222222
2222222222
2222222222
2222222222
2222222222
2222222222
2222222222
2222222222
2222222222
2222222222
2222222222
2222222222
2222222222
2222222222
2222222222
2222222222
2222222222
2222222222
2222222222
2222222222
2222222222
2222222222
2222222222
2222222222
2222222222
2222222222
2222222222
2222222222
2222222222
2222222222
2222222222
2222222222
2222222222
2222222222
2222222222
2222222222
2222222222
2222222222
2222222222
2222222222
2222222222
2222222222
2222222222
2222222222
2222222222
2222222222
2222222222
2222222222
2222222222
2222222222
2222222222
2222222222
2222222222
2222222222
2222222222
2222222222
2222222222
2222222222
2222222222
2222222222
2222222222
2222222222
2222222222
2222222222
2222222222
2222222222
2222222222
2222222222
2222222222
2222222222
2222222222
2222222222
2222222222
2222222222
2222222222
2222222222
2222222222
2222222222
2222222222
2222222222
2222222222
2222222222
2222222222
2222222222
2222222222
2222222222
2222222222
2222222222
2222222222
2222222222
2222222222
2222222222
2222222222
2222222222
2222222222
2222222222
2222222222
2222222222
2222222222
2222222222
2222222222
2222222222
2222222222
3333333333
3333333333
3333333333
3333333333
3333333333
3333333333
3333333333
3333333333
3333333333
3333333333
3333333333
3333333333
3333333333
3333333333
3333333333
3333333333
3333333333
3333333333
3333333333
3333333333
3333333333
3333333333
3333333333
3333333333
3333333333
3333333333
3333333333
3333333333
3333333333
3333333333
3333333333
3333333333
3333333333
3333333333
3333333333
3333333333
3333333333
3333333333
3333333333
3333333333
3333333333
3333333333
3333333333
3333333333
3333333333
3333333333
3333333333
3333333333
3333333333
3333333333
3333333333
3333333333
3333333333
3333333333
3333333333
3333333333
3333333333
3333333333
3333333333
3333333333
3333333333
3333333333
3333333333
3333333333
3333333333
3333333333
3333333333
3333333333
3333333333
3333333333
3333333333
3333333333
3333333333
3333333333
3333333333
3333333333
3333333333
3333333333
3333333333
3333333333
3333333333
3333333333
3333333333
3333333333
3333333333
3333333333
3333333333
3333333333
3333333333
3333333333
3333333333
3333333333
3333333333
3333333333
3333333333
3333333333
3333333333
3333333333
3333333333
3333333333
3333333333
3333333333
3333333333
3333333333
3333333333
3333333333
3333333333
3333333333
3333333333
3333333333
3333333333
3333333333
3333333333
3333333333
3333333333
3333333333
3333333333
3333333333
3333333333
3333333333
3333333333
3333333333
3333333333
3333333333
3333333333
3333333333
3333333333
3333333333
3333333333
3333333333
3333333333
3333333333
3333333333
3333333333
3333333333
3333333333
3333333333
3333333333
3333333333
3333333333
3333333333
3333333333
3333333333
3333333333
3333333333
3333333333
3333333333
3333333333
3333333333
3333333333
3333333333
3333333333
3333333333
3333333333
3333333333
3333333333
3333333333
3333333333
3333333333
3333333333
3333333333
3333333333
3333333333
3333333333
3333333333
3333333333
3333333333
3333333333
3333333333
3333333333
3333333333
3333333333
3333333333
3333333333
3333333333
3333333333
3333333333
3333333333
3333333333
3333333333
3333333333
3333333333
3333333333
3333333333
3333333333
3333333333
3333333333
3333333333
3333333333
3333333333
3333333333
3333333333
3333333333
3333333333
3333333333
3333333333
3333333333
3333333333
3333333333
3333333333
3333333333
3333333333
3333333333
3333333333
3333333333
3333333333
3333333333
3333333333
3333333333
3333333333
3333333333
3333333333
3333333333
3333333333
3333333333
3333333333
3333333333
3333333333
3333333333
3333333333
3333333333
3333333333
3333333333
3333333333
3333333333
3333333333
3333333333
3333333333
3333333333
3333333333
3333333333
3333333333
3333333333
3333333333
3333333333
3333333333
3333333333
3333333333
3333333333
3333333333
3333333333
3333333333
3333333333
3333333333
3333333333
3333333333
3333333333
3333333333
3333333333
3333333333
3333333333
3333333333
3333333333
3333333333
3333333333
3333333333
3333333333
3333333333
3333333333
3333333333
3333333333
3333333333
3333333333
3333333333
3333333333
3333333333
3333333333
3333333333
3333333333
3333333333
3333333333
3333333333
3333333333
3333333333
3333333333
3333333333
3333333333
3333333333
3333333333
3333333333
3333333333
3333333333
3333333333
3333333333
3333333333
3333333333
3333333333
3333333333
3333333333
3333333333
3333333333
3333333333
3333333333
3333333333
3333333333
3333333333
3333333333
3333333333
3333333333
3333333333
3333333333
3333333333
3333333333
3333333333
3333333333
3333333333
3333333333
3333333333
3333333333
3333333333
3333333333
3333333333
3333333333
3333333333
3333333333
3333333333
3333333333
3333333333
3333333333
3333333333
3333333333
3333333333
3333333333
3333333333
3333333333
3333333333
3333333333
3333333333
3333333333
3333333333
3333333333
3333333333
3333333333
3333333333
3333333333
3333333333
3333333333
3333333333
3333333333
3333333333
3333333333
3333333333
3333333333
3333333333
3333333333
3333333333
3333333333
3333333333
3333333333
3333333333
3333333333
3333333333
3333333333
3333333333
3333333333
3333333333
3333333333
3333333333
3333333333
3333333333
3333333333
3333333333
3333333333
3333333333
3333333333
3333333333
3333333333
3333333333
3333333333
3333333333
3333333333
3333333333
3333333333
3333333333
3333333333
3333333333
3333333333
3333333333
3333333333
3333333333
3333333333
3333333333
3333333333
3333333333
4444444444
4444444444
4444444444
4444444444
4444444444
4444444444
4444444444
4444444444
4444444444
4444444444
4444444444
4444444444
4444444444
4444444444
4444444444
4444444444
4444444444
4444444444
4444444444
4444444444
4444444444
4444444444
4444444444
4444444444
4444444444
4444444444
4444444444
4444444444
4444444444
4444444444
4444444444
4444444444
4444444444
4444444444
4444444444
4444444444
4444444444
4444444444
4444444444
4444444444
4444444444
4444444444
4444444444
4444444444
4444444444
4444444444
4444444444
4444444444
4444444444
4444444444
4444444444
4444444444
4444444444
4444444444
4444444444
4444444444
4444444444
4444444444
4444444444
4444444444
4444444444
4444444444
4444444444
4444444444
4444444444
4444444444
4444444444
4444444444
4444444444
4444444444
4444444444
4444444444
4444444444
4444444444
4444444444
4444444444
4444444444
4444444444
4444444444
4444444444
4444444444
4444444444
4444444444
4444444444
4444444444
4444444444
4444444444
4444444444
4444444444
4444444444
4444444444
4444444444
4444444444
4444444444
4444444444
4444444444
4444444444
4444444444
4444444444
4444444444
4444444444
4444444444
4444444444
4444444444
4444444444
4444444444
4444444444
4444444444
4444444444
4444444444
4444444444
4444444444
4444444444
4444444444
4444444444
4444444444
4444444444
4444444444
4444444444
4444444444
4444444444
4444444444
4444444444
4444444444
4444444444
4444444444
4444444444
4444444444
4444444444
4444444444
4444444444
4444444444
4444444444
4444444444
4444444444
4444444444
4444444444
4444444444
4444444444
4444444444
4444444444
4444444444
4444444444
4444444444
4444444444
4444444444
4444444444
4444444444
4444444444
4444444444
4444444444
4444444444
4444444444
4444444444
4444444444
4444444444
4444444444
4444444444
4444444444
4444444444
4444444444
4444444444
4444444444
4444444444
4444444444
4444444444
4444444444
4444444444
4444444444
4444444444
4444444444
4444444444
4444444444
4444444444
4444444444
4444444444
4444444444
4444444444
4444444444
4444444444
4444444444
4444444444
4444444444
4444444444
4444444444
4444444444
4444444444
4444444444
4444444444
4444444444
4444444444
4444444444
4444444444
4444444444
4444444444
4444444444
4444444444
4444444444
4444444444
4444444444
4444444444
4444444444
4444444444
4444444444
4444444444
4444444444
4444444444
4444444444
4444444444
4444444444
4444444444
4444444444
4444444444
4444444444
4444444444
4444444444
4444444444
4444444444
4444444444
4444444444
4444444444
4444444444
4444444444
4444444444
4444444444
4444444444
4444444444
4444444444
4444444444
4444444444
4444444444
4444444444
4444444444
4444444444
4444444444
4444444444
4444444444
4444444444
4444444444
4444444444
4444444444
4444444444
4444444444
4444444444
4444444444
4444444444
4444444444
4444444444
4444444444
4444444444
4444444444
4444444444
4444444444
4444444444
4444444444
4444444444
4444444444
4444444444
4444444444
4444444444
4444444444
4444444444
4444444444
4444444444
4444444444
4444444444
4444444444
4444444444
4444444444
4444444444
4444444444
4444444444
4444444444
4444444444
4444444444
4444444444
4444444444
4444444444
4444444444
4444444444
4444444444
4444444444
4444444444
4444444444
4444444444
4444444444
4444444444
4444444444
4444444444
4444444444
4444444444
4444444444
4444444444
4444444444
4444444444
4444444444
4444444444
4444444444
4444444444
4444444444
4444444444
4444444444
4444444444
4444444444
4444444444
4444444444
4444444444
4444444444
4444444444
4444444444
4444444444
4444444444
4444444444
4444444444
4444444444
4444444444
4444444444
4444444444
4444444444
4444444444
4444444444
4444444444
4444444444
4444444444
4444444444
4444444444
4444444444
4444444444
4444444444
4444444444
4444444444
4444444444
4444444444
4444444444
4444444444
4444444444
4444444444
4444444444
4444444444
4444444444
4444444444
4444444444
4444444444
4444444444
4444444444
4444444444
4444444444
4444444444
4444444444
4444444444
4444444444
4444444444
4444444444
4444444444
4444444444
4444444444
4444444444
4444444444
4444444444
4444444444
4444444444
4444444444
4444444444
4444444444
4444444444
4444444444
4444444444
4444444444
4444444444
4444444444
4444444444
4444444444
4444444444
4444444444
4444444444
4444444444
4444444444
4444444444
4444444444
4444444444
4444444444
4444444444
4444444444
4444444444
5555555555
5555555555
5555555555
5555555555
5555555555
5555555555
5555555555
5555555555
5555555555
5555555555
5555555555
5555555555
5555555555
5555555555
5555555555
5555555555
5555555555
5555555555
5555555555
5555555555
5555555555
5555555555
5555555555
5555555555
5555555555
5555555555
5555555555
5555555555
5555555555
5555555555
5555555555
5555555555
5555555555
5555555555
5555555555
5555555555
5555555555
5555555555
5555555555
5555555555
5555555555
5555555555
5555555555
5555555555
5555555555
5555555555
5555555555
5555555555
5555555555
5555555555
5555555555
5555555555
5555555555
5555555555
5555555555
5555555555
5555555555
5555555555
5555555555
5555555555
5555555555
5555555555
5555555555
5555555555
5555555555
5555555555
5555555555
5555555555
5555555555
5555555555
5555555555
5555555555
5555555555
5555555555
5555555555
5555555555
5555555555
5555555555
5555555555
5555555555
5555555555
5555555555
5555555555
5555555555
5555555555
5555555555
5555555555
5555555555
5555555555
5555555555
5555555555
5555555555
5555555555
5555555555
5555555555
5555555555
5555555555
5555555555
5555555555
5555555555
5555555555
5555555555
5555555555
5555555555
5555555555
5555555555
5555555555
5555555555
5555555555
5555555555
5555555555
5555555555
5555555555
5555555555
5555555555
5555555555
5555555555
5555555555
5555555555
5555555555
5555555555
5555555555
5555555555
5555555555
5555555555
5555555555
5555555555
5555555555
5555555555
5555555555
5555555555
5555555555
5555555555
5555555555
5555555555
5555555555
5555555555
5555555555
5555555555
5555555555
5555555555
5555555555
5555555555
5555555555
5555555555
5555555555
5555555555
5555555555
5555555555
5555555555
5555555555
5555555555
5555555555
5555555555
5555555555
5555555555
5555555555
5555555555
5555555555
5555555555
5555555555
5555555555
5555555555
5555555555
5555555555
5555555555
5555555555
5555555555
5555555555
5555555555
5555555555
5555555555
5555555555
5555555555
5555555555
5555555555
5555555555
5555555555
5555555555
5555555555
5555555555
5555555555
5555555555
5555555555
5555555555
5555555555
5555555555
5555555555
5555555555
5555555555
5555555555
5555555555
5555555555
5555555555
5555555555
5555555555
5555555555
5555555555
5555555555
5555555555
5555555555
5555555555
5555555555
5555555555
5555555555
5555555555
5555555555
5555555555
5555555555
5555555555
5555555555
5555555555
5555555555
5555555555
5555555555
5555555555
5555555555
5555555555
5555555555
5555555555
5555555555
5555555555
5555555555
5555555555
5555555555
5555555555
5555555555
5555555555
5555555555
5555555555
5555555555
5555555555
5555555555
5555555555
5555555555
5555555555
5555555555
5555555555
5555555555
5555555555
5555555555
5555555555
5555555555
5555555555
5555555555
5555555555
5555555555
5555555555
5555555555
5555555555
5555555555
5555555555
5555555555
5555555555
5555555555
5555555555
5555555555
5555555555
5555555555
5555555555
5555555555
5555555555
5555555555
5555555555
5555555555
5555555555
5555555555
5555555555
5555555555
5555555555
5555555555
5555555555
5555555555
5555555555
5555555555
5555555555
5555555555
5555555555
5555555555
5555555555
5555555555
5555555555
5555555555
5555555555
5555555555
5555555555
5555555555
5555555555
5555555555
5555555555
5555555555
5555555555
5555555555
5555555555
5555555555
5555555555
5555555555
5555555555
5555555555
5555555555
5555555555
5555555555
5555555555
5555555555
5555555555
5555555555
5555555555
5555555555
5555555555
5555555555
5555555555
5555555555
5555555555
5555555555
5555555555
5555555555
5555555555
5555555555
5555555555
5555555555
5555555555
5555555555
5555555555
5555555555
5555555555
5555555555
5555555555
5555555555
5555555555
5555555555
5555555555
5555555555
5555555555
5555555555
5555555555
5555555555
5555555555
5555555555
5555555555
5555555555
5555555555
5555555555
5555555555
5555555555
5555555555
5555555555
5555555555
5555555555
5555555555
5555555555
5555555555
5555555555
5555555555
5555555555
5555555555
5555555555
5555555555
5555555555
5555555555
5555555555
5555555555
5555555555
5555555555
5555555555
5555555555
5555555555
5555555555
5555555555
5555555555
5555555555
5555555555
5555555555
5555555555
5555555555
5555555555
5555555555
5555555555
5555555555
5555555555
5555555555
5555555555
5555555555
5555555555
5555555555
6666666666
6666666666
6666666666
6666666666
6666666666
6666666666
6666666666
6666666666
6666666666
6666666666
6666666666
6666666666
6666666666
6666666666
6666666666
6666666666
6666666666
6666666666
6666666666
6666666666
6666666666
6666666666
6666666666
6666666666
6666666666
6666666666
6666666666
6666666666
6666666666
6666666666
6666666666
6666666666
6666666666
6666666666
6666666666
6666666666
6666666666
6666666666
6666666666
6666666666
6666666666
6666666666
6666666666
6666666666
6666666666
6666666666
6666666666
6666666666
6666666666
6666666666
6666666666
6666666666
6666666666
6666666666
6666666666
6666666666
6666666666
6666666666
6666666666
6666666666
6666666666
6666666666
6666666666
6666666666
6666666666
6666666666
6666666666
6666666666
6666666666
6666666666
6666666666
6666666666
6666666666
6666666666
6666666666
6666666666
6666666666
6666666666
6666666666
6666666666
6666666666
6666666666
6666666666
6666666666
6666666666
6666666666
6666666666
6666666666
6666666666
6666666666
6666666666
6666666666
6666666666
6666666666
6666666666
6666666666
6666666666
6666666666
6666666666
6666666666
6666666666
6666666666
6666666666
6666666666
6666666666
6666666666
6666666666
6666666666
6666666666
6666666666
6666666666
6666666666
6666666666
6666666666
6666666666
6666666666
6666666666
6666666666
6666666666
6666666666
6666666666
6666666666
6666666666
6666666666
6666666666
6666666666
6666666666
6666666666
6666666666
6666666666
6666666666
6666666666
6666666666
6666666666
6666666666
6666666666
6666666666
6666666666
6666666666
6666666666
6666666666
6666666666
6666666666
6666666666
6666666666
6666666666
6666666666
6666666666
6666666666
6666666666
6666666666
6666666666
6666666666
6666666666
6666666666
6666666666
6666666666
6666666666
6666666666
6666666666
6666666666
6666666666
6666666666
6666666666
6666666666
6666666666
6666666666
6666666666
6666666666
6666666666
6666666666
6666666666
6666666666
6666666666
6666666666
6666666666
6666666666
6666666666
6666666666
6666666666
6666666666
6666666666
6666666666
6666666666
6666666666
6666666666
6666666666
6666666666
6666666666
6666666666
6666666666
6666666666
6666666666
6666666666
6666666666
6666666666
6666666666
6666666666
6666666666
6666666666
6666666666
6666666666
6666666666
6666666666
6666666666
6666666666
6666666666
6666666666
6666666666
6666666666
6666666666
6666666666
6666666666
6666666666
6666666666
6666666666
6666666666
6666666666
6666666666
6666666666
6666666666
6666666666
6666666666
6666666666
6666666666
6666666666
6666666666
6666666666
6666666666
6666666666
6666666666
6666666666
6666666666
6666666666
6666666666
6666666666
6666666666
6666666666
6666666666
6666666666
6666666666
6666666666
6666666666
6666666666
6666666666
6666666666
6666666666
6666666666
6666666666
6666666666
6666666666
6666666666
6666666666
6666666666
6666666666
6666666666
6666666666
6666666666
6666666666
6666666666
6666666666
6666666666
6666666666
6666666666
6666666666
6666666666
6666666666
6666666666
6666666666
6666666666
6666666666
6666666666
6666666666
6666666666
6666666666
6666666666
6666666666
6666666666
6666666666
6666666666
6666666666
6666666666
6666666666
6666666666
6666666666
6666666666
6666666666
6666666666
6666666666
6666666666
6666666666
6666666666
6666666666
6666666666
6666666666
6666666666
6666666666
6666666666
6666666666
6666666666
6666666666
6666666666
6666666666
6666666666
6666666666
6666666666
6666666666
6666666666
6666666666
6666666666
6666666666
6666666666
6666666666
6666666666
6666666666
6666666666
6666666666
6666666666
6666666666
6666666666
6666666666
6666666666
6666666666
6666666666
6666666666
6666666666
6666666666
6666666666
6666666666
6666666666
6666666666
6666666666
6666666666
6666666666
6666666666
6666666666
6666666666
6666666666
6666666666
6666666666
6666666666
6666666666
6666666666
6666666666
6666666666
6666666666
6666666666
6666666666
6666666666
6666666666
6666666666
6666666666
6666666666
6666666666
6666666666
6666666666
6666666666
6666666666
6666666666
6666666666
6666666666
6666666666
6666666666
6666666666
6666666666
6666666666
6666666666
6666666666
6666666666
6666666666
6666666666
6666666666
6666666666
6666666666
6666666666
6666666666
6666666666
6666666666
6666666666
6666666666
6666666666
6666666666
6666666666
6666666666
7777777777
7777777777
7777777777
7777777777
7777777777
7777777777
7777777777
7777777777
7777777777
7777777777
7777777777
7777777777
7777777777
7777777777
7777777777
7777777777
7777777777
7777777777
7777777777
7777777777
7777777777
7777777777
7777777777
7777777777
7777777777
7777777777
7777777777
7777777777
7777777777
7777777777
7777777777
7777777777
7777777777
7777777777
7777777777
7777777777
7777777777
7777777777
7777777777
7777777777
7777777777
7777777777
7777777777
7777777777
7777777777
7777777777
7777777777
7777777777
7777777777
7777777777
7777777777
7777777777
7777777777
7777777777
7777777777
7777777777
7777777777
7777777777
7777777777
7777777777
7777777777
7777777777
7777777777
7777777777
7777777777
7777777777
7777777777
7777777777
7777777777
7777777777
7777777777
7777777777
7777777777
7777777777
7777777777
7777777777
7777777777
7777777777
7777777777
7777777777
7777777777
7777777777
7777777777
7777777777
7777777777
7777777777
7777777777
7777777777
7777777777
7777777777
7777777777
7777777777
7777777777
7777777777
7777777777
7777777777
7777777777
7777777777
7777777777
7777777777
7777777777
7777777777
7777777777
7777777777
7777777777
7777777777
7777777777
7777777777
7777777777
7777777777
7777777777
7777777777
7777777777
7777777777
7777777777
7777777777
7777777777
7777777777
7777777777
7777777777
7777777777
7777777777
7777777777
7777777777
7777777777
7777777777
7777777777
7777777777
7777777777
7777777777
7777777777
7777777777
7777777777
7777777777
7777777777
7777777777
7777777777
7777777777
7777777777
7777777777
7777777777
7777777777
7777777777
7777777777
7777777777
7777777777
7777777777
7777777777
7777777777
7777777777
7777777777
7777777777
7777777777
7777777777
7777777777
7777777777
7777777777
7777777777
7777777777
7777777777
7777777777
7777777777
7777777777
7777777777
7777777777
7777777777
7777777777
7777777777
7777777777
7777777777
7777777777
7777777777
7777777777
7777777777
7777777777
7777777777
7777777777
7777777777
7777777777
7777777777
7777777777
7777777777
7777777777
7777777777
7777777777
7777777777
7777777777
7777777777
7777777777
7777777777
7777777777
7777777777
7777777777
7777777777
7777777777
7777777777
7777777777
7777777777
7777777777
7777777777
7777777777
7777777777
7777777777
7777777777
7777777777
7777777777
7777777777
7777777777
7777777777
7777777777
7777777777
7777777777
7777777777
7777777777
7777777777
7777777777
7777777777
7777777777
7777777777
7777777777
7777777777
7777777777
7777777777
7777777777
7777777777
7777777777
7777777777
7777777777
7777777777
7777777777
7777777777
7777777777
7777777777
7777777777
7777777777
7777777777
7777777777
7777777777
7777777777
7777777777
7777777777
7777777777
7777777777
7777777777
7777777777
7777777777
7777777777
7777777777
7777777777
7777777777
7777777777
7777777777
7777777777
7777777777
7777777777
7777777777
7777777777
7777777777
7777777777
7777777777
7777777777
7777777777
7777777777
7777777777
7777777777
7777777777
7777777777
7777777777
7777777777
7777777777
7777777777
7777777777
7777777777
7777777777
7777777777
7777777777
7777777777
7777777777
7777777777
7777777777
7777777777
7777777777
7777777777
7777777777
7777777777
7777777777
7777777777
7777777777
7777777777
7777777777
7777777777
7777777777
7777777777
7777777777
7777777777
7777777777
7777777777
7777777777
7777777777
7777777777
7777777777
7777777777
7777777777
7777777777
7777777777
7777777777
7777777777
7777777777
7777777777
7777777777
7777777777
7777777777
7777777777
7777777777
7777777777
7777777777
7777777777
7777777777
7777777777
7777777777
7777777777
7777777777
7777777777
7777777777
7777777777
7777777777
7777777777
7777777777
7777777777
7777777777
7777777777
7777777777
7777777777
7777777777
7777777777
7777777777
7777777777
7777777777
7777777777
7777777777
7777777777
7777777777
7777777777
7777777777
7777777777
7777777777
7777777777
7777777777
7777777777
7777777777
7777777777
7777777777
7777777777
7777777777
7777777777
7777777777
7777777777
7777777777
7777777777
7777777777
7777777777
7777777777
7777777777
7777777777
7777777777
7777777777
7777777777
7777777777
7777777777
7777777777
7777777777
7777777777
7777777777
7777777777
7777777777
7777777777
7777777777
7777777777
7777777777
7777777777
7777777777
7777777777
7777777777
7777777777
8888888888
8888888888
8888888888
8888888888
8888888888
8888888888
8888888888
8888888888
8888888888
8888888888
8888888888
8888888888
8888888888
8888888888
8888888888
8888888888
8888888888
8888888888
8888888888
8888888888
8888888888
8888888888
8888888888
8888888888
8888888888
8888888888
8888888888
8888888888
8888888888
8888888888
8888888888
8888888888
8888888888
8888888888
8888888888
8888888888
8888888888
8888888888
8888888888
8888888888
8888888888
8888888888
8888888888
8888888888
8888888888
8888888888
8888888888
8888888888
8888888888
8888888888
8888888888
8888888888
8888888888
8888888888
8888888888
8888888888
8888888888
8888888888
8888888888
8888888888
8888888888
8888888888
8888888888
8888888888
8888888888
8888888888
8888888888
8888888888
8888888888
8888888888
8888888888
8888888888
8888888888
8888888888
8888888888
8888888888
8888888888
8888888888
8888888888
8888888888
8888888888
8888888888
8888888888
8888888888
8888888888
8888888888
8888888888
8888888888
8888888888
8888888888
8888888888
8888888888
8888888888
8888888888
8888888888
8888888888
8888888888
8888888888
8888888888
8888888888
8888888888
8888888888
8888888888
8888888888
8888888888
8888888888
8888888888
8888888888
8888888888
8888888888
8888888888
8888888888
8888888888
8888888888
8888888888
8888888888
8888888888
8888888888
8888888888
8888888888
8888888888
8888888888
8888888888
8888888888
8888888888
8888888888
8888888888
8888888888
8888888888
8888888888
8888888888
8888888888
8888888888
8888888888
8888888888
8888888888
8888888888
8888888888
8888888888
8888888888
8888888888
8888888888
8888888888
8888888888
8888888888
8888888888
8888888888
8888888888
8888888888
8888888888
8888888888
8888888888
8888888888
8888888888
8888888888
8888888888
8888888888
8888888888
8888888888
8888888888
8888888888
8888888888
8888888888
8888888888
8888888888
8888888888
8888888888
8888888888
8888888888
8888888888
8888888888
8888888888
8888888888
8888888888
8888888888
8888888888
8888888888
8888888888
8888888888
8888888888
8888888888
8888888888
8888888888
8888888888
8888888888
8888888888
8888888888
8888888888
8888888888
8888888888
8888888888
8888888888
8888888888
8888888888
8888888888
8888888888
8888888888
8888888888
8888888888
8888888888
8888888888
8888888888
8888888888
8888888888
8888888888
8888888888
8888888888
8888888888
8888888888
8888888888
8888888888
8888888888
8888888888
8888888888
8888888888
8888888888
8888888888
8888888888
8888888888
8888888888
8888888888
8888888888
8888888888
8888888888
8888888888
8888888888
8888888888
8888888888
8888888888
8888888888
8888888888
8888888888
8888888888
8888888888
8888888888
8888888888
8888888888
8888888888
8888888888
8888888888
8888888888
8888888888
8888888888
8888888888
8888888888
8888888888
8888888888
8888888888
8888888888
8888888888
8888888888
8888888888
8888888888
8888888888
8888888888
8888888888
8888888888
8888888888
8888888888
8888888888
8888888888
8888888888
8888888888
8888888888
8888888888
8888888888
8888888888
8888888888
8888888888
8888888888
8888888888
8888888888
8888888888
8888888888
8888888888
8888888888
8888888888
8888888888
8888888888
8888888888
8888888888
8888888888
8888888888
8888888888
8888888888
8888888888
8888888888
8888888888
8888888888
8888888888
8888888888
8888888888
8888888888
8888888888
8888888888
8888888888
8888888888
8888888888
8888888888
8888888888
8888888888
8888888888
8888888888
8888888888
8888888888
8888888888
8888888888
8888888888
8888888888
8888888888
8888888888
8888888888
8888888888
8888888888
8888888888
8888888888
8888888888
8888888888
8888888888
8888888888
8888888888
8888888888
8888888888
8888888888
8888888888
8888888888
8888888888
8888888888
8888888888
8888888888
8888888888
8888888888
8888888888
8888888888
8888888888
8888888888
8888888888
8888888888
8888888888
8888888888
8888888888
8888888888
8888888888
8888888888
8888888888
8888888888
8888888888
8888888888
8888888888
8888888888
8888888888
8888888888
8888888888
8888888888
8888888888
8888888888
8888888888
8888888888
8888888888
8888888888
8888888888
8888888888
8888888888
8888888888
8888888888
8888888888
8888888888
8888888888
8888888888
8888888888
8888888888
8888888888
8888888888
8888888888
8888888888
8888888888
8888888888
8888888888
8888888888
8888888888
8888888888
8888888888
8888888888
8888888888
9999999999
9999999999
9999999999
9999999999
9999999999
9999999999
9999999999
9999999999
9999999999
9999999999
9999999999
9999999999
9999999999
9999999999
9999999999
9999999999
9999999999
9999999999
9999999999
9999999999
9999999999
9999999999
9999999999
9999999999
9999999999
9999999999
9999999999
9999999999
9999999999
9999999999
9999999999
9999999999
9999999999
9999999999
9999999999
9999999999
9999999999
9999999999
9999999999
9999999999
9999999999
9999999999
9999999999
9999999999
9999999999
9999999999
9999999999
9999999999
9999999999
9999999999
9999999999
9999999999
9999999999
9999999999
9999999999
9999999999
9999999999
9999999999
9999999999
9999999999
9999999999
9999999999
9999999999
9999999999
9999999999
9999999999
9999999999
9999999999
9999999999
9999999999
9999999999
9999999999
9999999999
9999999999
9999999999
9999999999
9999999999
9999999999
9999999999
9999999999
9999999999
9999999999
9999999999
9999999999
9999999999
9999999999
9999999999
9999999999
9999999999
9999999999
9999999999
9999999999
9999999999
9999999999
9999999999
9999999999
9999999999
9999999999
9999999999
9999999999
9999999999
9999999999
9999999999
9999999999
9999999999
9999999999
9999999999
9999999999
9999999999
9999999999
9999999999
9999999999
9999999999
9999999999
9999999999
9999999999
9999999999
9999999999
9999999999
9999999999
9999999999
9999999999
9999999999
9999999999
9999999999
9999999999
9999999999
9999999999
9999999999
9999999999
9999999999
9999999999
9999999999
9999999999
9999999999
9999999999
9999999999
9999999999
9999999999
9999999999
9999999999
9999999999
9999999999
9999999999
9999999999
9999999999
9999999999
9999999999
9999999999
9999999999
9999999999
9999999999
9999999999
9999999999
9999999999
9999999999
9999999999
9999999999
9999999999
9999999999
9999999999
9999999999
9999999999
9999999999
9999999999
9999999999
9999999999
9999999999
9999999999
9999999999
9999999999
9999999999
9999999999
9999999999
9999999999
9999999999
9999999999
9999999999
9999999999
9999999999
9999999999
9999999999
9999999999
9999999999
9999999999
9999999999
9999999999
9999999999
9999999999
9999999999
9999999999
9999999999
9999999999
9999999999
9999999999
9999999999
9999999999
9999999999
9999999999
9999999999
9999999999
9999999999
9999999999
9999999999
9999999999
9999999999
9999999999
9999999999
9999999999
9999999999
9999999999
9999999999
9999999999
9999999999
9999999999
9999999999
9999999999
9999999999
9999999999
9999999999
9999999999
9999999999
9999999999
9999999999
9999999999
9999999999
9999999999
9999999999
9999999999
9999999999
9999999999
9999999999
9999999999
9999999999
9999999999
9999999999
9999999999
9999999999
9999999999
9999999999
9999999999
9999999999
9999999999
9999999999
9999999999
9999999999
9999999999
9999999999
9999999999
9999999999
9999999999
9999999999
9999999999
9999999999
9999999999
9999999999
9999999999
9999999999
9999999999
9999999999
9999999999
9999999999
9999999999
9999999999
9999999999
9999999999
9999999999
9999999999
9999999999
9999999999
9999999999
9999999999
9999999999
9999999999
9999999999
9999999999
9999999999
9999999999
9999999999
9999999999
9999999999
9999999999
9999999999
9999999999
9999999999
9999999999
9999999999
9999999999
9999999999
9999999999
9999999999
9999999999
9999999999
9999999999
9999999999
9999999999
9999999999
9999999999
9999999999
9999999999
9999999999
9999999999
9999999999
9999999999
9999999999
9999999999
9999999999
9999999999
9999999999
9999999999
9999999999
9999999999
9999999999
9999999999
9999999999
9999999999
9999999999
9999999999
9999999999
9999999999
9999999999
9999999999
9999999999
9999999999
9999999999
9999999999
9999999999
9999999999
9999999999
9999999999
9999999999
9999999999
9999999999
9999999999
9999999999
9999999999
9999999999
9999999999
9999999999
9999999999
9999999999
9999999999
9999999999
9999999999
9999999999
9999999999
9999999999
9999999999
9999999999
9999999999
9999999999
9999999999
9999999999
9999999999
9999999999
9999999999
9999999999
9999999999
9999999999
9999999999
9999999999
9999999999
9999999999
9999999999
9999999999
9999999999
9999999999
9999999999
9999999999
9999999999
9999999999
9999999999
9999999999
9999999999
9999999999
9999999999
9999999999
9999999999
9999999999
9999999999
9999999999
9999999999
9999999999
9999999999
10101010101010101010
10101010101010101010
10101010101010101010
10101010101010101010
10101010101010101010
10101010101010101010
10101010101010101010
10101010101010101010
10101010101010101010
10101010101010101010
10101010101010101010
10101010101010101010
10101010101010101010
10101010101010101010
10101010101010101010
10101010101010101010
10101010101010101010
10101010101010101010
10101010101010101010
10101010101010101010
10101010101010101010
10101010101010101010
10101010101010101010
10101010101010101010
10101010101010101010
10101010101010101010
10101010101010101010
10101010101010101010
10101010101010101010
10101010101010101010
10101010101010101010
10101010101010101010
10101010101010101010
10101010101010101010
10101010101010101010
10101010101010101010
10101010101010101010
10101010101010101010
10101010101010101010
10101010101010101010
10101010101010101010
10101010101010101010
10101010101010101010
10101010101010101010
10101010101010101010
10101010101010101010
10101010101010101010
10101010101010101010
10101010101010101010
10101010101010101010
10101010101010101010
10101010101010101010
10101010101010101010
10101010101010101010
10101010101010101010
10101010101010101010
10101010101010101010
10101010101010101010
10101010101010101010
10101010101010101010
10101010101010101010
10101010101010101010
10101010101010101010
10101010101010101010
10101010101010101010
10101010101010101010
10101010101010101010
10101010101010101010
10101010101010101010
10101010101010101010
10101010101010101010
10101010101010101010
10101010101010101010
10101010101010101010
10101010101010101010
10101010101010101010
10101010101010101010
10101010101010101010
10101010101010101010
10101010101010101010
10101010101010101010
10101010101010101010
10101010101010101010
10101010101010101010
10101010101010101010
10101010101010101010
10101010101010101010
10101010101010101010
10101010101010101010
10101010101010101010
10101010101010101010
10101010101010101010
10101010101010101010
10101010101010101010
10101010101010101010
10101010101010101010
10101010101010101010
10101010101010101010
10101010101010101010
10101010101010101010
10101010101010101010
10101010101010101010
10101010101010101010
10101010101010101010
10101010101010101010
10101010101010101010
10101010101010101010
10101010101010101010
10101010101010101010
10101010101010101010
10101010101010101010
10101010101010101010
10101010101010101010
10101010101010101010
10101010101010101010
10101010101010101010
10101010101010101010
10101010101010101010
10101010101010101010
10101010101010101010
10101010101010101010
10101010101010101010
10101010101010101010
10101010101010101010
10101010101010101010
10101010101010101010
10101010101010101010
10101010101010101010
10101010101010101010
10101010101010101010
10101010101010101010
10101010101010101010
10101010101010101010
10101010101010101010
10101010101010101010
10101010101010101010
10101010101010101010
10101010101010101010
10101010101010101010
10101010101010101010
10101010101010101010
10101010101010101010
10101010101010101010
10101010101010101010
10101010101010101010
10101010101010101010
10101010101010101010
10101010101010101010
10101010101010101010
10101010101010101010
10101010101010101010
10101010101010101010
10101010101010101010
10101010101010101010
10101010101010101010
10101010101010101010
10101010101010101010
10101010101010101010
10101010101010101010
10101010101010101010
10101010101010101010
10101010101010101010
10101010101010101010
10101010101010101010
10101010101010101010
10101010101010101010
10101010101010101010
10101010101010101010
10101010101010101010
10101010101010101010
10101010101010101010
10101010101010101010
10101010101010101010
10101010101010101010
10101010101010101010
10101010101010101010
10101010101010101010
10101010101010101010
10101010101010101010
10101010101010101010
10101010101010101010
10101010101010101010
10101010101010101010
10101010101010101010
10101010101010101010
10101010101010101010
10101010101010101010
10101010101010101010
10101010101010101010
10101010101010101010
10101010101010101010
10101010101010101010
10101010101010101010
10101010101010101010
10101010101010101010
10101010101010101010
10101010101010101010
10101010101010101010
10101010101010101010
10101010101010101010
10101010101010101010
10101010101010101010
10101010101010101010
10101010101010101010
10101010101010101010
10101010101010101010
10101010101010101010
10101010101010101010
10101010101010101010
10101010101010101010
10101010101010101010
10101010101010101010
10101010101010101010
10101010101010101010
10101010101010101010
10101010101010101010
10101010101010101010
10101010101010101010
10101010101010101010
10101010101010101010
10101010101010101010
10101010101010101010
10101010101010101010
10101010101010101010
10101010101010101010
10101010101010101010
10101010101010101010
10101010101010101010
10101010101010101010
10101010101010101010
10101010101010101010
10101010101010101010
10101010101010101010
10101010101010101010
10101010101010101010
10101010101010101010
10101010101010101010
10101010101010101010
10101010101010101010
10101010101010101010
10101010101010101010
10101010101010101010
10101010101010101010
10101010101010101010
10101010101010101010
10101010101010101010
10101010101010101010
10101010101010101010
10101010101010101010
10101010101010101010
10101010101010101010
10101010101010101010
10101010101010101010
10101010101010101010
10101010101010101010
10101010101010101010
10101010101010101010
10101010101010101010
10101010101010101010
10101010101010101010
10101010101010101010
10101010101010101010
10101010101010101010
10101010101010101010
10101010101010101010
10101010101010101010
10101010101010101010
10101010101010101010
10101010101010101010
10101010101010101010
10101010101010101010
10101010101010101010
10101010101010101010
10101010101010101010
10101010101010101010
10101010101010101010
10101010101010101010
10101010101010101010
10101010101010101010
10101010101010101010
10101010101010101010
10101010101010101010
10101010101010101010
10101010101010101010
10101010101010101010
10101010101010101010
10101010101010101010
10101010101010101010
10101010101010101010
10101010101010101010
10101010101010101010
10101010101010101010
10101010101010101010
10101010101010101010
10101010101010101010
10101010101010101010
10101010101010101010
10101010101010101010
10101010101010101010
10101010101010101010
10101010101010101010
10101010101010101010
10101010101010101010
10101010101010101010
10101010101010101010
10101010101010101010
10101010101010101010
10101010101010101010
10101010101010101010
10101010101010101010
10101010101010101010
10101010101010101010
10101010101010101010
10101010101010101010
10101010101010101010
10101010101010101010
10101010101010101010
10101010101010101010
10101010101010101010
10101010101010101010
10101010101010101010
10101010101010101010
10101010101010101010
10101010101010101010
10101010101010101010
10101010101010101010
10101010101010101010
10101010101010101010
10101010101010101010
10101010101010101010
10101010101010101010
10101010101010101010
10101010101010101010
10101010101010101010
10101010101010101010
10101010101010101010
10101010101010101010
10101010101010101010
10101010101010101010
10101010101010101010
10101010101010101010
10101010101010101010
10101010101010101010
10101010101010101010
10101010101010101010
10101010101010101010
10101010101010101010
10101010101010101010
10101010101010101010
10101010101010101010
10101010101010101010
10101010101010101010
10101010101010101010
10101010101010101010
10101010101010101010
10101010101010101010
10101010101010101010
10101010101010101010
10101010101010101010
10101010101010101010
10101010101010101010
10101010101010101010
10101010101010101010
10101010101010101010
10101010101010101010
10101010101010101010
10101010101010101010
10101010101010101010
10101010101010101010
10101010101010101010
10101010101010101010
10101010101010101010
10101010101010101010
10101010101010101010
10101010101010101010
10101010101010101010
10101010101010101010
10101010101010101010
10101010101010101010
10101010101010101010
10101010101010101010
10101010101010101010
10101010101010101010
10101010101010101010
11111111111111111111
11111111111111111111
11111111111111111111
11111111111111111111
11111111111111111111
11111111111111111111
11111111111111111111
11111111111111111111
11111111111111111111
11111111111111111111
11111111111111111111
11111111111111111111
11111111111111111111
11111111111111111111
11111111111111111111
11111111111111111111
11111111111111111111
11111111111111111111
11111111111111111111
11111111111111111111
11111111111111111111
11111111111111111111
11111111111111111111
11111111111111111111
11111111111111111111
11111111111111111111
11111111111111111111
11111111111111111111
11111111111111111111
11111111111111111111
11111111111111111111
11111111111111111111
11111111111111111111
11111111111111111111
11111111111111111111
11111111111111111111
11111111111111111111
11111111111111111111
11111111111111111111
11111111111111111111
11111111111111111111
11111111111111111111
11111111111111111111
11111111111111111111
11111111111111111111
11111111111111111111
11111111111111111111
11111111111111111111
11111111111111111111
11111111111111111111
11111111111111111111
11111111111111111111
11111111111111111111
11111111111111111111
11111111111111111111
11111111111111111111
11111111111111111111
11111111111111111111
11111111111111111111
11111111111111111111
11111111111111111111
11111111111111111111
11111111111111111111
11111111111111111111
11111111111111111111
11111111111111111111
11111111111111111111
11111111111111111111
11111111111111111111
11111111111111111111
11111111111111111111
11111111111111111111
11111111111111111111
11111111111111111111
11111111111111111111
11111111111111111111
11111111111111111111
11111111111111111111
11111111111111111111
11111111111111111111
11111111111111111111
11111111111111111111
11111111111111111111
11111111111111111111
11111111111111111111
11111111111111111111
11111111111111111111
11111111111111111111
11111111111111111111
11111111111111111111
11111111111111111111
11111111111111111111
11111111111111111111
11111111111111111111
11111111111111111111
11111111111111111111
11111111111111111111
11111111111111111111
11111111111111111111
11111111111111111111
11111111111111111111
11111111111111111111
11111111111111111111
11111111111111111111
11111111111111111111
11111111111111111111
11111111111111111111
11111111111111111111
11111111111111111111
11111111111111111111
11111111111111111111
11111111111111111111
11111111111111111111
11111111111111111111
11111111111111111111
11111111111111111111
11111111111111111111
11111111111111111111
11111111111111111111
11111111111111111111
11111111111111111111
11111111111111111111
11111111111111111111
11111111111111111111
11111111111111111111
11111111111111111111
11111111111111111111
11111111111111111111
11111111111111111111
11111111111111111111
11111111111111111111
11111111111111111111
11111111111111111111
11111111111111111111
11111111111111111111
11111111111111111111
11111111111111111111
11111111111111111111
11111111111111111111
11111111111111111111
11111111111111111111
11111111111111111111
11111111111111111111
11111111111111111111
11111111111111111111
11111111111111111111
11111111111111111111
11111111111111111111
11111111111111111111
11111111111111111111
11111111111111111111
11111111111111111111
11111111111111111111
11111111111111111111
11111111111111111111
11111111111111111111
11111111111111111111
11111111111111111111
11111111111111111111
11111111111111111111
11111111111111111111
11111111111111111111
11111111111111111111
11111111111111111111
11111111111111111111
11111111111111111111
11111111111111111111
11111111111111111111
11111111111111111111
11111111111111111111
11111111111111111111
11111111111111111111
11111111111111111111
11111111111111111111
11111111111111111111
11111111111111111111
11111111111111111111
11111111111111111111
11111111111111111111
11111111111111111111
11111111111111111111
11111111111111111111
11111111111111111111
11111111111111111111
11111111111111111111
11111111111111111111
11111111111111111111
11111111111111111111
11111111111111111111
11111111111111111111
11111111111111111111
11111111111111111111
11111111111111111111
11111111111111111111
11111111111111111111
11111111111111111111
11111111111111111111
11111111111111111111
11111111111111111111
11111111111111111111
11111111111111111111
11111111111111111111
11111111111111111111
11111111111111111111
11111111111111111111
11111111111111111111
11111111111111111111
11111111111111111111
11111111111111111111
11111111111111111111
11111111111111111111
11111111111111111111
11111111111111111111
11111111111111111111
11111111111111111111
11111111111111111111
11111111111111111111
11111111111111111111
11111111111111111111
11111111111111111111
11111111111111111111
11111111111111111111
11111111111111111111
11111111111111111111
11111111111111111111
11111111111111111111
11111111111111111111
11111111111111111111
11111111111111111111
11111111111111111111
11111111111111111111
11111111111111111111
11111111111111111111
11111111111111111111
11111111111111111111
11111111111111111111
11111111111111111111
11111111111111111111
11111111111111111111
11111111111111111111
11111111111111111111
11111111111111111111
11111111111111111111
11111111111111111111
11111111111111111111
11111111111111111111
11111111111111111111
11111111111111111111
11111111111111111111
11111111111111111111
11111111111111111111
11111111111111111111
11111111111111111111
11111111111111111111
11111111111111111111
11111111111111111111
11111111111111111111
11111111111111111111
11111111111111111111
11111111111111111111
11111111111111111111
11111111111111111111
11111111111111111111
11111111111111111111
11111111111111111111
11111111111111111111
11111111111111111111
11111111111111111111
11111111111111111111
11111111111111111111
11111111111111111111
11111111111111111111
11111111111111111111
11111111111111111111
11111111111111111111
11111111111111111111
11111111111111111111
11111111111111111111
11111111111111111111
11111111111111111111
11111111111111111111
11111111111111111111
11111111111111111111
11111111111111111111
11111111111111111111
11111111111111111111
11111111111111111111
11111111111111111111
11111111111111111111
11111111111111111111
11111111111111111111
11111111111111111111
11111111111111111111
11111111111111111111
11111111111111111111
11111111111111111111
11111111111111111111
11111111111111111111
11111111111111111111
11111111111111111111
11111111111111111111
11111111111111111111
11111111111111111111
11111111111111111111
11111111111111111111
11111111111111111111
11111111111111111111
11111111111111111111
11111111111111111111
11111111111111111111
11111111111111111111
11111111111111111111
11111111111111111111
11111111111111111111
11111111111111111111
11111111111111111111
11111111111111111111
11111111111111111111
11111111111111111111
11111111111111111111
11111111111111111111
11111111111111111111
11111111111111111111
11111111111111111111
11111111111111111111
11111111111111111111
11111111111111111111
11111111111111111111
11111111111111111111
11111111111111111111
11111111111111111111
11111111111111111111
11111111111111111111
11111111111111111111
11111111111111111111
11111111111111111111
11111111111111111111
11111111111111111111
11111111111111111111
11111111111111111111
11111111111111111111
11111111111111111111
11111111111111111111
11111111111111111111
11111111111111111111
11111111111111111111
11111111111111111111
11111111111111111111
11111111111111111111
11111111111111111111
11111111111111111111
11111111111111111111
11111111111111111111
11111111111111111111
11111111111111111111
11111111111111111111
11111111111111111111
11111111111111111111
11111111111111111111
11111111111111111111
11111111111111111111
11111111111111111111
11111111111111111111
11111111111111111111
11111111111111111111
11111111111111111111
11111111111111111111
11111111111111111111
11111111111111111111
11111111111111111111
11111111111111111111
11111111111111111111
11111111111111111111
11111111111111111111
11111111111111111111
11111111111111111111
11111111111111111111
11111111111111111111
11111111111111111111
11111111111111111111
11111111111111111111
11111111111111111111
11111111111111111111
11111111111111111111
12121212121212121212
12121212121212121212
12121212121212121212
12121212121212121212
12121212121212121212
12121212121212121212
12121212121212121212
12121212121212121212
12121212121212121212
12121212121212121212
12121212121212121212
12121212121212121212
12121212121212121212
12121212121212121212
12121212121212121212
12121212121212121212
12121212121212121212
12121212121212121212
12121212121212121212
12121212121212121212
12121212121212121212
12121212121212121212
12121212121212121212
12121212121212121212
12121212121212121212
12121212121212121212
12121212121212121212
12121212121212121212
12121212121212121212
12121212121212121212
12121212121212121212
12121212121212121212
12121212121212121212
12121212121212121212
12121212121212121212
12121212121212121212
12121212121212121212
12121212121212121212
12121212121212121212
12121212121212121212
12121212121212121212
12121212121212121212
12121212121212121212
12121212121212121212
12121212121212121212
12121212121212121212
12121212121212121212
12121212121212121212
12121212121212121212
12121212121212121212
12121212121212121212
12121212121212121212
12121212121212121212
12121212121212121212
12121212121212121212
12121212121212121212
12121212121212121212
12121212121212121212
12121212121212121212
12121212121212121212
12121212121212121212
12121212121212121212
12121212121212121212
12121212121212121212
12121212121212121212
12121212121212121212
12121212121212121212
12121212121212121212
12121212121212121212
12121212121212121212
12121212121212121212
12121212121212121212
12121212121212121212
12121212121212121212
12121212121212121212
12121212121212121212
12121212121212121212
12121212121212121212
12121212121212121212
12121212121212121212
12121212121212121212
12121212121212121212
12121212121212121212
12121212121212121212
12121212121212121212
12121212121212121212
12121212121212121212
12121212121212121212
12121212121212121212
12121212121212121212
12121212121212121212
12121212121212121212
12121212121212121212
12121212121212121212
12121212121212121212
12121212121212121212
12121212121212121212
12121212121212121212
12121212121212121212
12121212121212121212
12121212121212121212
12121212121212121212
12121212121212121212
12121212121212121212
12121212121212121212
12121212121212121212
12121212121212121212
12121212121212121212
12121212121212121212
12121212121212121212
12121212121212121212
12121212121212121212
12121212121212121212
12121212121212121212
12121212121212121212
12121212121212121212
12121212121212121212
12121212121212121212
12121212121212121212
12121212121212121212
12121212121212121212
12121212121212121212
12121212121212121212
12121212121212121212
12121212121212121212
12121212121212121212
12121212121212121212
12121212121212121212
12121212121212121212
12121212121212121212
12121212121212121212
12121212121212121212
12121212121212121212
12121212121212121212
12121212121212121212
12121212121212121212
12121212121212121212
12121212121212121212
12121212121212121212
12121212121212121212
12121212121212121212
12121212121212121212
12121212121212121212
12121212121212121212
12121212121212121212
12121212121212121212
12121212121212121212
12121212121212121212
12121212121212121212
12121212121212121212
12121212121212121212
12121212121212121212
12121212121212121212
12121212121212121212
12121212121212121212
12121212121212121212
12121212121212121212
12121212121212121212
12121212121212121212
12121212121212121212
12121212121212121212
12121212121212121212
12121212121212121212
12121212121212121212
12121212121212121212
12121212121212121212
12121212121212121212
12121212121212121212
12121212121212121212
12121212121212121212
12121212121212121212
12121212121212121212
12121212121212121212
12121212121212121212
12121212121212121212
12121212121212121212
12121212121212121212
12121212121212121212
12121212121212121212
12121212121212121212
12121212121212121212
12121212121212121212
12121212121212121212
12121212121212121212
12121212121212121212
12121212121212121212
12121212121212121212
12121212121212121212
12121212121212121212
12121212121212121212
12121212121212121212
12121212121212121212
12121212121212121212
12121212121212121212
12121212121212121212
12121212121212121212
12121212121212121212
12121212121212121212
12121212121212121212
12121212121212121212
12121212121212121212
12121212121212121212
12121212121212121212
12121212121212121212
12121212121212121212
12121212121212121212
12121212121212121212
12121212121212121212
12121212121212121212
12121212121212121212
12121212121212121212
12121212121212121212
12121212121212121212
12121212121212121212
12121212121212121212
12121212121212121212
12121212121212121212
12121212121212121212
12121212121212121212
12121212121212121212
12121212121212121212
12121212121212121212
12121212121212121212
12121212121212121212
12121212121212121212
12121212121212121212
12121212121212121212
12121212121212121212
12121212121212121212
12121212121212121212
12121212121212121212
12121212121212121212
12121212121212121212
12121212121212121212
12121212121212121212
12121212121212121212
12121212121212121212
12121212121212121212
12121212121212121212
12121212121212121212
12121212121212121212
12121212121212121212
12121212121212121212
12121212121212121212
12121212121212121212
12121212121212121212
12121212121212121212
12121212121212121212
12121212121212121212
12121212121212121212
12121212121212121212
12121212121212121212
12121212121212121212
12121212121212121212
12121212121212121212
12121212121212121212
12121212121212121212
12121212121212121212
12121212121212121212
12121212121212121212
12121212121212121212
12121212121212121212
12121212121212121212
12121212121212121212
12121212121212121212
12121212121212121212
12121212121212121212
12121212121212121212
12121212121212121212
12121212121212121212
12121212121212121212
12121212121212121212
12121212121212121212
12121212121212121212
12121212121212121212
12121212121212121212
12121212121212121212
12121212121212121212
12121212121212121212
12121212121212121212
12121212121212121212
12121212121212121212
12121212121212121212
12121212121212121212
12121212121212121212
12121212121212121212
12121212121212121212
12121212121212121212
12121212121212121212
12121212121212121212
12121212121212121212
12121212121212121212
12121212121212121212
12121212121212121212
12121212121212121212
12121212121212121212
12121212121212121212
12121212121212121212
12121212121212121212
12121212121212121212
12121212121212121212
12121212121212121212
12121212121212121212
12121212121212121212
12121212121212121212
12121212121212121212
12121212121212121212
12121212121212121212
12121212121212121212
12121212121212121212
12121212121212121212
12121212121212121212
12121212121212121212
12121212121212121212
12121212121212121212
12121212121212121212
12121212121212121212
12121212121212121212
12121212121212121212
12121212121212121212
12121212121212121212
12121212121212121212
12121212121212121212
12121212121212121212
12121212121212121212
12121212121212121212
12121212121212121212
12121212121212121212
12121212121212121212
12121212121212121212
12121212121212121212
12121212121212121212
12121212121212121212
12121212121212121212
12121212121212121212
12121212121212121212
12121212121212121212
12121212121212121212
12121212121212121212
12121212121212121212
12121212121212121212
12121212121212121212
12121212121212121212
12121212121212121212
12121212121212121212
12121212121212121212
12121212121212121212
12121212121212121212
12121212121212121212
12121212121212121212
12121212121212121212
12121212121212121212
12121212121212121212
12121212121212121212
12121212121212121212
12121212121212121212
12121212121212121212
12121212121212121212
12121212121212121212
12121212121212121212
12121212121212121212
12121212121212121212
12121212121212121212
12121212121212121212
12121212121212121212
12121212121212121212
12121212121212121212
12121212121212121212
12121212121212121212
12121212121212121212
12121212121212121212
12121212121212121212
12121212121212121212
12121212121212121212
12121212121212121212
12121212121212121212
12121212121212121212
12121212121212121212
12121212121212121212
12121212121212121212
12121212121212121212
12121212121212121212
12121212121212121212
12121212121212121212
13131313131313131313
13131313131313131313
13131313131313131313
13131313131313131313
13131313131313131313
13131313131313131313
13131313131313131313
13131313131313131313
13131313131313131313
13131313131313131313
13131313131313131313
13131313131313131313
13131313131313131313
13131313131313131313
13131313131313131313
13131313131313131313
13131313131313131313
13131313131313131313
13131313131313131313
13131313131313131313
13131313131313131313
13131313131313131313
13131313131313131313
13131313131313131313
13131313131313131313
13131313131313131313
13131313131313131313
13131313131313131313
13131313131313131313
13131313131313131313
13131313131313131313
13131313131313131313
13131313131313131313
13131313131313131313
13131313131313131313
13131313131313131313
13131313131313131313
13131313131313131313
13131313131313131313
13131313131313131313
13131313131313131313
13131313131313131313
13131313131313131313
13131313131313131313
13131313131313131313
13131313131313131313
13131313131313131313
13131313131313131313
13131313131313131313
13131313131313131313
13131313131313131313
13131313131313131313
13131313131313131313
13131313131313131313
13131313131313131313
13131313131313131313
13131313131313131313
13131313131313131313
13131313131313131313
13131313131313131313
13131313131313131313
13131313131313131313
13131313131313131313
13131313131313131313
13131313131313131313
13131313131313131313
13131313131313131313
13131313131313131313
13131313131313131313
13131313131313131313
13131313131313131313
13131313131313131313
13131313131313131313
13131313131313131313
13131313131313131313
13131313131313131313
13131313131313131313
13131313131313131313
13131313131313131313
13131313131313131313
13131313131313131313
13131313131313131313
13131313131313131313
13131313131313131313
13131313131313131313
13131313131313131313
13131313131313131313
13131313131313131313
13131313131313131313
13131313131313131313
13131313131313131313
13131313131313131313
13131313131313131313
13131313131313131313
13131313131313131313
13131313131313131313
13131313131313131313
13131313131313131313
13131313131313131313
13131313131313131313
13131313131313131313
13131313131313131313
13131313131313131313
13131313131313131313
13131313131313131313
13131313131313131313
13131313131313131313
13131313131313131313
13131313131313131313
13131313131313131313
13131313131313131313
13131313131313131313
13131313131313131313
13131313131313131313
13131313131313131313
13131313131313131313
13131313131313131313
13131313131313131313
13131313131313131313
13131313131313131313
13131313131313131313
13131313131313131313
13131313131313131313
13131313131313131313
13131313131313131313
13131313131313131313
13131313131313131313
13131313131313131313
13131313131313131313
13131313131313131313
13131313131313131313
13131313131313131313
13131313131313131313
13131313131313131313
13131313131313131313
13131313131313131313
13131313131313131313
13131313131313131313
13131313131313131313
13131313131313131313
13131313131313131313
13131313131313131313
13131313131313131313
13131313131313131313
13131313131313131313
13131313131313131313
13131313131313131313
13131313131313131313
13131313131313131313
13131313131313131313
13131313131313131313
13131313131313131313
13131313131313131313
13131313131313131313
13131313131313131313
13131313131313131313
13131313131313131313
13131313131313131313
13131313131313131313
13131313131313131313
13131313131313131313
13131313131313131313
13131313131313131313
13131313131313131313
13131313131313131313
13131313131313131313
13131313131313131313
13131313131313131313
13131313131313131313
13131313131313131313
13131313131313131313
13131313131313131313
13131313131313131313
13131313131313131313
13131313131313131313
13131313131313131313
13131313131313131313
13131313131313131313
13131313131313131313
13131313131313131313
13131313131313131313
13131313131313131313
13131313131313131313
13131313131313131313
13131313131313131313
13131313131313131313
13131313131313131313
13131313131313131313
13131313131313131313
13131313131313131313
13131313131313131313
13131313131313131313
13131313131313131313
13131313131313131313
13131313131313131313
13131313131313131313
13131313131313131313
13131313131313131313
13131313131313131313
13131313131313131313
13131313131313131313
13131313131313131313
13131313131313131313
13131313131313131313
13131313131313131313
13131313131313131313
13131313131313131313
13131313131313131313
13131313131313131313
13131313131313131313
13131313131313131313
13131313131313131313
13131313131313131313
13131313131313131313
13131313131313131313
13131313131313131313
13131313131313131313
13131313131313131313
13131313131313131313
13131313131313131313
13131313131313131313
13131313131313131313
13131313131313131313
13131313131313131313
13131313131313131313
13131313131313131313
13131313131313131313
13131313131313131313
13131313131313131313
13131313131313131313
13131313131313131313
13131313131313131313
13131313131313131313
13131313131313131313
13131313131313131313
13131313131313131313
13131313131313131313
13131313131313131313
13131313131313131313
13131313131313131313
13131313131313131313
13131313131313131313
13131313131313131313
13131313131313131313
13131313131313131313
13131313131313131313
13131313131313131313
13131313131313131313
13131313131313131313
13131313131313131313
13131313131313131313
13131313131313131313
13131313131313131313
13131313131313131313
13131313131313131313
13131313131313131313
13131313131313131313
13131313131313131313
13131313131313131313
13131313131313131313
13131313131313131313
13131313131313131313
13131313131313131313
13131313131313131313
13131313131313131313
13131313131313131313
13131313131313131313
13131313131313131313
13131313131313131313
13131313131313131313
13131313131313131313
13131313131313131313
13131313131313131313
13131313131313131313
13131313131313131313
13131313131313131313
13131313131313131313
13131313131313131313
13131313131313131313
13131313131313131313
13131313131313131313
13131313131313131313
13131313131313131313
13131313131313131313
13131313131313131313
13131313131313131313
13131313131313131313
13131313131313131313
13131313131313131313
13131313131313131313
13131313131313131313
13131313131313131313
13131313131313131313
13131313131313131313
13131313131313131313
13131313131313131313
13131313131313131313
13131313131313131313
13131313131313131313
13131313131313131313
13131313131313131313
13131313131313131313
13131313131313131313
13131313131313131313
13131313131313131313
13131313131313131313
13131313131313131313
13131313131313131313
13131313131313131313
13131313131313131313
13131313131313131313
13131313131313131313
13131313131313131313
13131313131313131313
13131313131313131313
13131313131313131313
13131313131313131313
13131313131313131313
13131313131313131313
13131313131313131313
13131313131313131313
13131313131313131313
13131313131313131313
13131313131313131313
13131313131313131313
13131313131313131313
13131313131313131313
13131313131313131313
13131313131313131313
13131313131313131313
13131313131313131313
13131313131313131313
13131313131313131313
13131313131313131313
13131313131313131313
13131313131313131313
13131313131313131313
13131313131313131313
13131313131313131313
13131313131313131313
13131313131313131313
13131313131313131313
13131313131313131313
13131313131313131313
13131313131313131313
13131313131313131313
13131313131313131313
13131313131313131313
13131313131313131313
13131313131313131313
13131313131313131313
13131313131313131313
13131313131313131313
13131313131313131313
13131313131313131313
13131313131313131313
13131313131313131313
13131313131313131313
13131313131313131313
13131313131313131313
13131313131313131313
13131313131313131313
13131313131313131313
13131313131313131313
13131313131313131313
13131313131313131313
13131313131313131313
13131313131313131313
13131313131313131313
13131313131313131313
13131313131313131313
13131313131313131313
13131313131313131313
13131313131313131313
13131313131313131313
13131313131313131313
13131313131313131313
13131313131313131313
13131313131313131313
13131313131313131313
13131313131313131313
13131313131313131313
13131313131313131313
13131313131313131313
14141414141414141414
14141414141414141414
14141414141414141414
14141414141414141414
14141414141414141414
14141414141414141414
14141414141414141414
14141414141414141414
14141414141414141414
14141414141414141414
14141414141414141414
14141414141414141414
14141414141414141414
14141414141414141414
14141414141414141414
14141414141414141414
14141414141414141414
14141414141414141414
14141414141414141414
14141414141414141414
14141414141414141414
14141414141414141414
14141414141414141414
14141414141414141414
14141414141414141414
14141414141414141414
14141414141414141414
14141414141414141414
14141414141414141414
14141414141414141414
14141414141414141414
14141414141414141414
14141414141414141414
14141414141414141414
14141414141414141414
14141414141414141414
14141414141414141414
14141414141414141414
14141414141414141414
14141414141414141414
14141414141414141414
14141414141414141414
14141414141414141414
14141414141414141414
14141414141414141414
14141414141414141414
14141414141414141414
14141414141414141414
14141414141414141414
14141414141414141414
14141414141414141414
14141414141414141414
14141414141414141414
14141414141414141414
14141414141414141414
14141414141414141414
14141414141414141414
14141414141414141414
14141414141414141414
14141414141414141414
14141414141414141414
14141414141414141414
14141414141414141414
14141414141414141414
14141414141414141414
14141414141414141414
14141414141414141414
14141414141414141414
14141414141414141414
14141414141414141414
14141414141414141414
14141414141414141414
14141414141414141414
14141414141414141414
14141414141414141414
14141414141414141414
14141414141414141414
14141414141414141414
14141414141414141414
14141414141414141414
14141414141414141414
14141414141414141414
14141414141414141414
14141414141414141414
14141414141414141414
14141414141414141414
14141414141414141414
14141414141414141414
14141414141414141414
14141414141414141414
14141414141414141414
14141414141414141414
14141414141414141414
14141414141414141414
14141414141414141414
14141414141414141414
14141414141414141414
14141414141414141414
14141414141414141414
14141414141414141414
14141414141414141414
14141414141414141414
14141414141414141414
14141414141414141414
14141414141414141414
14141414141414141414
14141414141414141414
14141414141414141414
14141414141414141414
14141414141414141414
14141414141414141414
14141414141414141414
14141414141414141414
14141414141414141414
14141414141414141414
14141414141414141414
14141414141414141414
14141414141414141414
14141414141414141414
14141414141414141414
14141414141414141414
14141414141414141414
14141414141414141414
14141414141414141414
14141414141414141414
14141414141414141414
14141414141414141414
14141414141414141414
14141414141414141414
14141414141414141414
14141414141414141414
14141414141414141414
14141414141414141414
14141414141414141414
14141414141414141414
14141414141414141414
14141414141414141414
14141414141414141414
14141414141414141414
14141414141414141414
14141414141414141414
14141414141414141414
14141414141414141414
14141414141414141414
14141414141414141414
14141414141414141414
14141414141414141414
14141414141414141414
14141414141414141414
14141414141414141414
14141414141414141414
14141414141414141414
14141414141414141414
14141414141414141414
14141414141414141414
14141414141414141414
14141414141414141414
14141414141414141414
14141414141414141414
14141414141414141414
14141414141414141414
14141414141414141414
14141414141414141414
14141414141414141414
14141414141414141414
14141414141414141414
14141414141414141414
14141414141414141414
14141414141414141414
14141414141414141414
14141414141414141414
14141414141414141414
14141414141414141414
14141414141414141414
14141414141414141414
14141414141414141414
14141414141414141414
14141414141414141414
14141414141414141414
14141414141414141414
14141414141414141414
14141414141414141414
14141414141414141414
14141414141414141414
14141414141414141414
14141414141414141414
14141414141414141414
14141414141414141414
14141414141414141414
14141414141414141414
14141414141414141414
14141414141414141414
14141414141414141414
14141414141414141414
14141414141414141414
14141414141414141414
14141414141414141414
14141414141414141414
14141414141414141414
14141414141414141414
14141414141414141414
14141414141414141414
14141414141414141414
14141414141414141414
14141414141414141414
14141414141414141414
14141414141414141414
14141414141414141414
14141414141414141414
14141414141414141414
14141414141414141414
14141414141414141414
14141414141414141414
14141414141414141414
14141414141414141414
14141414141414141414
14141414141414141414
14141414141414141414
14141414141414141414
14141414141414141414
14141414141414141414
14141414141414141414
14141414141414141414
14141414141414141414
14141414141414141414
14141414141414141414
14141414141414141414
14141414141414141414
14141414141414141414
14141414141414141414
14141414141414141414
14141414141414141414
14141414141414141414
14141414141414141414
14141414141414141414
14141414141414141414
14141414141414141414
14141414141414141414
14141414141414141414
14141414141414141414
14141414141414141414
14141414141414141414
14141414141414141414
14141414141414141414
14141414141414141414
14141414141414141414
14141414141414141414
14141414141414141414
14141414141414141414
14141414141414141414
14141414141414141414
14141414141414141414
14141414141414141414
14141414141414141414
14141414141414141414
14141414141414141414
14141414141414141414
14141414141414141414
14141414141414141414
14141414141414141414
14141414141414141414
14141414141414141414
14141414141414141414
14141414141414141414
14141414141414141414
14141414141414141414
14141414141414141414
14141414141414141414
14141414141414141414
14141414141414141414
14141414141414141414
14141414141414141414
14141414141414141414
14141414141414141414
14141414141414141414
14141414141414141414
14141414141414141414
14141414141414141414
14141414141414141414
14141414141414141414
14141414141414141414
14141414141414141414
14141414141414141414
14141414141414141414
14141414141414141414
14141414141414141414
14141414141414141414
14141414141414141414
14141414141414141414
14141414141414141414
14141414141414141414
14141414141414141414
14141414141414141414
14141414141414141414
14141414141414141414
14141414141414141414
14141414141414141414
14141414141414141414
14141414141414141414
14141414141414141414
14141414141414141414
14141414141414141414
14141414141414141414
14141414141414141414
14141414141414141414
14141414141414141414
14141414141414141414
14141414141414141414
14141414141414141414
14141414141414141414
14141414141414141414
14141414141414141414
14141414141414141414
14141414141414141414
14141414141414141414
14141414141414141414
14141414141414141414
14141414141414141414
14141414141414141414
14141414141414141414
14141414141414141414
14141414141414141414
14141414141414141414
14141414141414141414
14141414141414141414
14141414141414141414
14141414141414141414
14141414141414141414
14141414141414141414
14141414141414141414
14141414141414141414
14141414141414141414
14141414141414141414
14141414141414141414
14141414141414141414
14141414141414141414
14141414141414141414
14141414141414141414
14141414141414141414
14141414141414141414
14141414141414141414
14141414141414141414
14141414141414141414
14141414141414141414
14141414141414141414
14141414141414141414
14141414141414141414
14141414141414141414
14141414141414141414
14141414141414141414
14141414141414141414
14141414141414141414
14141414141414141414
14141414141414141414
14141414141414141414
14141414141414141414
14141414141414141414
14141414141414141414
14141414141414141414
14141414141414141414
14141414141414141414
14141414141414141414
14141414141414141414
14141414141414141414
14141414141414141414
14141414141414141414
14141414141414141414
14141414141414141414
14141414141414141414
14141414141414141414
14141414141414141414
14141414141414141414
14141414141414141414
14141414141414141414
14141414141414141414
14141414141414141414
14141414141414141414
14141414141414141414
14141414141414141414
14141414141414141414
14141414141414141414
14141414141414141414
14141414141414141414
14141414141414141414
15151515151515151515
15151515151515151515
15151515151515151515
15151515151515151515
15151515151515151515
15151515151515151515
15151515151515151515
15151515151515151515
15151515151515151515
15151515151515151515
15151515151515151515
15151515151515151515
15151515151515151515
15151515151515151515
15151515151515151515
15151515151515151515
15151515151515151515
15151515151515151515
15151515151515151515
15151515151515151515
15151515151515151515
15151515151515151515
15151515151515151515
15151515151515151515
15151515151515151515
15151515151515151515
15151515151515151515
15151515151515151515
15151515151515151515
15151515151515151515
15151515151515151515
15151515151515151515
15151515151515151515
15151515151515151515
15151515151515151515
15151515151515151515
15151515151515151515
15151515151515151515
15151515151515151515
15151515151515151515
15151515151515151515
15151515151515151515
15151515151515151515
15151515151515151515
15151515151515151515
15151515151515151515
15151515151515151515
15151515151515151515
15151515151515151515
15151515151515151515
15151515151515151515
15151515151515151515
15151515151515151515
15151515151515151515
15151515151515151515
15151515151515151515
15151515151515151515
15151515151515151515
15151515151515151515
15151515151515151515
15151515151515151515
15151515151515151515
15151515151515151515
15151515151515151515
15151515151515151515
15151515151515151515
15151515151515151515
15151515151515151515
15151515151515151515
15151515151515151515
15151515151515151515
15151515151515151515
15151515151515151515
15151515151515151515
15151515151515151515
15151515151515151515
15151515151515151515
15151515151515151515
15151515151515151515
15151515151515151515
15151515151515151515
15151515151515151515
15151515151515151515
15151515151515151515
15151515151515151515
15151515151515151515
15151515151515151515
15151515151515151515
15151515151515151515
15151515151515151515
15151515151515151515
15151515151515151515
15151515151515151515
15151515151515151515
15151515151515151515
15151515151515151515
15151515151515151515
15151515151515151515
15151515151515151515
15151515151515151515
15151515151515151515
15151515151515151515
15151515151515151515
15151515151515151515
15151515151515151515
15151515151515151515
15151515151515151515
15151515151515151515
15151515151515151515
15151515151515151515
15151515151515151515
15151515151515151515
15151515151515151515
15151515151515151515
15151515151515151515
15151515151515151515
15151515151515151515
15151515151515151515
15151515151515151515
15151515151515151515
15151515151515151515
15151515151515151515
15151515151515151515
15151515151515151515
15151515151515151515
15151515151515151515
15151515151515151515
15151515151515151515
15151515151515151515
15151515151515151515
15151515151515151515
15151515151515151515
15151515151515151515
15151515151515151515
15151515151515151515
15151515151515151515
15151515151515151515
15151515151515151515
15151515151515151515
15151515151515151515
15151515151515151515
15151515151515151515
15151515151515151515
15151515151515151515
15151515151515151515
15151515151515151515
15151515151515151515
15151515151515151515
15151515151515151515
15151515151515151515
15151515151515151515
15151515151515151515
15151515151515151515
15151515151515151515
15151515151515151515
15151515151515151515
15151515151515151515
15151515151515151515
15151515151515151515
15151515151515151515
15151515151515151515
15151515151515151515
15151515151515151515
15151515151515151515
15151515151515151515
15151515151515151515
15151515151515151515
15151515151515151515
15151515151515151515
15151515151515151515
15151515151515151515
15151515151515151515
15151515151515151515
15151515151515151515
15151515151515151515
15151515151515151515
15151515151515151515
15151515151515151515
15151515151515151515
15151515151515151515
15151515151515151515
15151515151515151515
15151515151515151515
15151515151515151515
15151515151515151515
15151515151515151515
15151515151515151515
15151515151515151515
15151515151515151515
15151515151515151515
15151515151515151515
15151515151515151515
15151515151515151515
15151515151515151515
15151515151515151515
15151515151515151515
15151515151515151515
15151515151515151515
15151515151515151515
15151515151515151515
15151515151515151515
15151515151515151515
15151515151515151515
15151515151515151515
15151515151515151515
15151515151515151515
15151515151515151515
15151515151515151515
15151515151515151515
15151515151515151515
15151515151515151515
15151515151515151515
15151515151515151515
15151515151515151515
15151515151515151515
15151515151515151515
15151515151515151515
15151515151515151515
15151515151515151515
15151515151515151515
15151515151515151515
15151515151515151515
15151515151515151515
15151515151515151515
15151515151515151515
15151515151515151515
15151515151515151515
15151515151515151515
15151515151515151515
15151515151515151515
15151515151515151515
15151515151515151515
15151515151515151515
15151515151515151515
15151515151515151515
15151515151515151515
15151515151515151515
15151515151515151515
15151515151515151515
15151515151515151515
15151515151515151515
15151515151515151515
15151515151515151515
15151515151515151515
15151515151515151515
15151515151515151515
15151515151515151515
15151515151515151515
15151515151515151515
15151515151515151515
15151515151515151515
15151515151515151515
15151515151515151515
15151515151515151515
15151515151515151515
15151515151515151515
15151515151515151515
15151515151515151515
15151515151515151515
15151515151515151515
15151515151515151515
15151515151515151515
15151515151515151515
15151515151515151515
15151515151515151515
15151515151515151515
15151515151515151515
15151515151515151515
15151515151515151515
15151515151515151515
15151515151515151515
15151515151515151515
15151515151515151515
15151515151515151515
15151515151515151515
15151515151515151515
15151515151515151515
15151515151515151515
15151515151515151515
15151515151515151515
15151515151515151515
15151515151515151515
15151515151515151515
15151515151515151515
15151515151515151515
15151515151515151515
15151515151515151515
15151515151515151515
15151515151515151515
15151515151515151515
15151515151515151515
15151515151515151515
15151515151515151515
15151515151515151515
15151515151515151515
15151515151515151515
15151515151515151515
15151515151515151515
15151515151515151515
15151515151515151515
15151515151515151515
15151515151515151515
15151515151515151515
15151515151515151515
15151515151515151515
15151515151515151515
15151515151515151515
15151515151515151515
15151515151515151515
15151515151515151515
15151515151515151515
15151515151515151515
15151515151515151515
15151515151515151515
15151515151515151515
15151515151515151515
15151515151515151515
15151515151515151515
15151515151515151515
15151515151515151515
15151515151515151515
15151515151515151515
15151515151515151515
15151515151515151515
15151515151515151515
15151515151515151515
15151515151515151515
15151515151515151515
15151515151515151515
15151515151515151515
15151515151515151515
15151515151515151515
15151515151515151515
15151515151515151515
15151515151515151515
15151515151515151515
15151515151515151515
15151515151515151515
15151515151515151515
15151515151515151515
15151515151515151515
15151515151515151515
15151515151515151515
15151515151515151515
15151515151515151515
15151515151515151515
15151515151515151515
15151515151515151515
15151515151515151515
15151515151515151515
15151515151515151515
15151515151515151515
15151515151515151515
15151515151515151515
15151515151515151515
15151515151515151515
15151515151515151515
15151515151515151515
15151515151515151515
15151515151515151515
15151515151515151515
15151515151515151515
15151515151515151515
15151515151515151515
15151515151515151515
15151515151515151515
15151515151515151515
15151515151515151515
15151515151515151515
15151515151515151515
15151515151515151515
15151515151515151515
15151515151515151515
15151515151515151515
15151515151515151515
15151515151515151515
15151515151515151515
15151515151515151515
15151515151515151515
15151515151515151515
15151515151515151515
15151515151515151515
15151515151515151515
15151515151515151515
16161616161616161616
16161616161616161616
16161616161616161616
16161616161616161616
16161616161616161616
16161616161616161616
16161616161616161616
16161616161616161616
16161616161616161616
16161616161616161616
16161616161616161616
16161616161616161616
16161616161616161616
16161616161616161616
16161616161616161616
16161616161616161616
16161616161616161616
16161616161616161616
16161616161616161616
16161616161616161616
16161616161616161616
16161616161616161616
16161616161616161616
16161616161616161616
16161616161616161616
16161616161616161616
16161616161616161616
16161616161616161616
16161616161616161616
16161616161616161616
16161616161616161616
16161616161616161616
16161616161616161616
16161616161616161616
16161616161616161616
16161616161616161616
16161616161616161616
16161616161616161616
16161616161616161616
16161616161616161616
16161616161616161616
16161616161616161616
16161616161616161616
16161616161616161616
16161616161616161616
16161616161616161616
16161616161616161616
16161616161616161616
16161616161616161616
16161616161616161616
16161616161616161616
16161616161616161616
16161616161616161616
16161616161616161616
16161616161616161616
16161616161616161616
16161616161616161616
16161616161616161616
16161616161616161616
16161616161616161616
16161616161616161616
16161616161616161616
16161616161616161616
16161616161616161616
16161616161616161616
16161616161616161616
16161616161616161616
16161616161616161616
16161616161616161616
16161616161616161616
16161616161616161616
16161616161616161616
16161616161616161616
16161616161616161616
16161616161616161616
16161616161616161616
16161616161616161616
16161616161616161616
16161616161616161616
16161616161616161616
16161616161616161616
16161616161616161616
16161616161616161616
16161616161616161616
16161616161616161616
16161616161616161616
16161616161616161616
16161616161616161616
16161616161616161616
16161616161616161616
16161616161616161616
16161616161616161616
16161616161616161616
16161616161616161616
16161616161616161616
16161616161616161616
16161616161616161616
16161616161616161616
16161616161616161616
16161616161616161616
16161616161616161616
16161616161616161616
16161616161616161616
16161616161616161616
16161616161616161616
16161616161616161616
16161616161616161616
16161616161616161616
16161616161616161616
16161616161616161616
16161616161616161616
16161616161616161616
16161616161616161616
16161616161616161616
16161616161616161616
16161616161616161616
16161616161616161616
16161616161616161616
16161616161616161616
16161616161616161616
16161616161616161616
16161616161616161616
16161616161616161616
16161616161616161616
16161616161616161616
16161616161616161616
16161616161616161616
16161616161616161616
16161616161616161616
16161616161616161616
16161616161616161616
16161616161616161616
16161616161616161616
16161616161616161616
16161616161616161616
16161616161616161616
16161616161616161616
16161616161616161616
16161616161616161616
16161616161616161616
16161616161616161616
16161616161616161616
16161616161616161616
16161616161616161616
16161616161616161616
16161616161616161616
16161616161616161616
16161616161616161616
16161616161616161616
16161616161616161616
16161616161616161616
16161616161616161616
16161616161616161616
16161616161616161616
16161616161616161616
16161616161616161616
16161616161616161616
16161616161616161616
16161616161616161616
16161616161616161616
16161616161616161616
16161616161616161616
16161616161616161616
16161616161616161616
16161616161616161616
16161616161616161616
16161616161616161616
16161616161616161616
16161616161616161616
16161616161616161616
16161616161616161616
16161616161616161616
16161616161616161616
16161616161616161616
16161616161616161616
16161616161616161616
16161616161616161616
16161616161616161616
16161616161616161616
16161616161616161616
16161616161616161616
16161616161616161616
16161616161616161616
16161616161616161616
16161616161616161616
16161616161616161616
16161616161616161616
16161616161616161616
16161616161616161616
16161616161616161616
16161616161616161616
16161616161616161616
16161616161616161616
16161616161616161616
16161616161616161616
16161616161616161616
16161616161616161616
16161616161616161616
16161616161616161616
16161616161616161616
16161616161616161616
16161616161616161616
16161616161616161616
16161616161616161616
16161616161616161616
16161616161616161616
16161616161616161616
16161616161616161616
16161616161616161616
16161616161616161616
16161616161616161616
16161616161616161616
16161616161616161616
16161616161616161616
16161616161616161616
16161616161616161616
16161616161616161616
16161616161616161616
16161616161616161616
16161616161616161616
16161616161616161616
16161616161616161616
16161616161616161616
16161616161616161616
16161616161616161616
16161616161616161616
16161616161616161616
16161616161616161616
16161616161616161616
16161616161616161616
16161616161616161616
16161616161616161616
16161616161616161616
16161616161616161616
16161616161616161616
16161616161616161616
16161616161616161616
16161616161616161616
16161616161616161616
16161616161616161616
16161616161616161616
16161616161616161616
16161616161616161616
16161616161616161616
16161616161616161616
16161616161616161616
16161616161616161616
16161616161616161616
16161616161616161616
16161616161616161616
16161616161616161616
16161616161616161616
16161616161616161616
16161616161616161616
16161616161616161616
16161616161616161616
16161616161616161616
16161616161616161616
16161616161616161616
16161616161616161616
16161616161616161616
16161616161616161616
16161616161616161616
16161616161616161616
16161616161616161616
16161616161616161616
16161616161616161616
16161616161616161616
16161616161616161616
16161616161616161616
16161616161616161616
16161616161616161616
16161616161616161616
16161616161616161616
16161616161616161616
16161616161616161616
16161616161616161616
16161616161616161616
16161616161616161616
16161616161616161616
16161616161616161616
16161616161616161616
16161616161616161616
16161616161616161616
16161616161616161616
16161616161616161616
16161616161616161616
16161616161616161616
16161616161616161616
16161616161616161616
16161616161616161616
16161616161616161616
16161616161616161616
16161616161616161616
16161616161616161616
16161616161616161616
16161616161616161616
16161616161616161616
16161616161616161616
16161616161616161616
16161616161616161616
16161616161616161616
16161616161616161616
16161616161616161616
16161616161616161616
16161616161616161616
16161616161616161616
16161616161616161616
16161616161616161616
16161616161616161616
16161616161616161616
16161616161616161616
16161616161616161616
16161616161616161616
16161616161616161616
16161616161616161616
16161616161616161616
16161616161616161616
16161616161616161616
16161616161616161616
16161616161616161616
16161616161616161616
16161616161616161616
16161616161616161616
16161616161616161616
16161616161616161616
16161616161616161616
16161616161616161616
16161616161616161616
16161616161616161616
16161616161616161616
16161616161616161616
16161616161616161616
16161616161616161616
16161616161616161616
16161616161616161616
16161616161616161616
16161616161616161616
16161616161616161616
16161616161616161616
16161616161616161616
16161616161616161616
16161616161616161616
16161616161616161616
16161616161616161616
16161616161616161616
16161616161616161616
16161616161616161616
16161616161616161616
16161616161616161616
16161616161616161616
16161616161616161616
16161616161616161616
16161616161616161616
16161616161616161616
16161616161616161616
